const unsigned char model[] = {
  0x1c, 0x00, 0x00, 0x00, 0x54, 0x46, 0x4c, 0x33, 0x14, 0x00, 0x20, 0x00,
  0x1c, 0x00, 0x18, 0x00, 0x14, 0x00, 0x10, 0x00, 0x0c, 0x00, 0x00, 0x00,
  0x08, 0x00, 0x04, 0x00, 0x14, 0x00, 0x00, 0x00, 0x1c, 0x00, 0x00, 0x00,
  0x98, 0x00, 0x00, 0x00, 0xf0, 0x00, 0x00, 0x00, 0x60, 0x18, 0x00, 0x00,
  0x70, 0x18, 0x00, 0x00, 0xcc, 0x1c, 0x00, 0x00, 0x03, 0x00, 0x00, 0x00,
  0x01, 0x00, 0x00, 0x00, 0x10, 0x00, 0x00, 0x00, 0x00, 0x00, 0x0a, 0x00,
  0x10, 0x00, 0x0c, 0x00, 0x08, 0x00, 0x04, 0x00, 0x0a, 0x00, 0x00, 0x00,
  0x0c, 0x00, 0x00, 0x00, 0x1c, 0x00, 0x00, 0x00, 0x3c, 0x00, 0x00, 0x00,
  0x0f, 0x00, 0x00, 0x00, 0x73, 0x65, 0x72, 0x76, 0x69, 0x6e, 0x67, 0x5f,
  0x64, 0x65, 0x66, 0x61, 0x75, 0x6c, 0x74, 0x00, 0x01, 0x00, 0x00, 0x00,
  0x04, 0x00, 0x00, 0x00, 0x90, 0xff, 0xff, 0xff, 0x08, 0x00, 0x00, 0x00,
  0x04, 0x00, 0x00, 0x00, 0x08, 0x00, 0x00, 0x00, 0x6f, 0x75, 0x74, 0x70,
  0x75, 0x74, 0x5f, 0x30, 0x00, 0x00, 0x00, 0x00, 0x01, 0x00, 0x00, 0x00,
  0x04, 0x00, 0x00, 0x00, 0x86, 0xe7, 0xff, 0xff, 0x04, 0x00, 0x00, 0x00,
  0x0c, 0x00, 0x00, 0x00, 0x6b, 0x65, 0x72, 0x61, 0x73, 0x5f, 0x74, 0x65,
  0x6e, 0x73, 0x6f, 0x72, 0x00, 0x00, 0x00, 0x00, 0x02, 0x00, 0x00, 0x00,
  0x34, 0x00, 0x00, 0x00, 0x04, 0x00, 0x00, 0x00, 0xdc, 0xff, 0xff, 0xff,
  0x0b, 0x00, 0x00, 0x00, 0x04, 0x00, 0x00, 0x00, 0x13, 0x00, 0x00, 0x00,
  0x43, 0x4f, 0x4e, 0x56, 0x45, 0x52, 0x53, 0x49, 0x4f, 0x4e, 0x5f, 0x4d,
  0x45, 0x54, 0x41, 0x44, 0x41, 0x54, 0x41, 0x00, 0x08, 0x00, 0x0c, 0x00,
  0x08, 0x00, 0x04, 0x00, 0x08, 0x00, 0x00, 0x00, 0x0a, 0x00, 0x00, 0x00,
  0x04, 0x00, 0x00, 0x00, 0x13, 0x00, 0x00, 0x00, 0x6d, 0x69, 0x6e, 0x5f,
  0x72, 0x75, 0x6e, 0x74, 0x69, 0x6d, 0x65, 0x5f, 0x76, 0x65, 0x72, 0x73,
  0x69, 0x6f, 0x6e, 0x00, 0x0c, 0x00, 0x00, 0x00, 0x6c, 0x17, 0x00, 0x00,
  0x64, 0x17, 0x00, 0x00, 0x4c, 0x17, 0x00, 0x00, 0x2c, 0x17, 0x00, 0x00,
  0x14, 0x17, 0x00, 0x00, 0xb4, 0x00, 0x00, 0x00, 0xac, 0x00, 0x00, 0x00,
  0xa4, 0x00, 0x00, 0x00, 0x9c, 0x00, 0x00, 0x00, 0x94, 0x00, 0x00, 0x00,
  0x74, 0x00, 0x00, 0x00, 0x04, 0x00, 0x00, 0x00, 0x32, 0xe8, 0xff, 0xff,
  0x04, 0x00, 0x00, 0x00, 0x60, 0x00, 0x00, 0x00, 0x10, 0x00, 0x00, 0x00,
  0x00, 0x00, 0x00, 0x00, 0x08, 0x00, 0x0e, 0x00, 0x08, 0x00, 0x04, 0x00,
  0x08, 0x00, 0x00, 0x00, 0x10, 0x00, 0x00, 0x00, 0x24, 0x00, 0x00, 0x00,
  0x00, 0x00, 0x06, 0x00, 0x08, 0x00, 0x04, 0x00, 0x06, 0x00, 0x00, 0x00,
  0x04, 0x00, 0x00, 0x00, 0x00, 0x00, 0x00, 0x00, 0x0c, 0x00, 0x18, 0x00,
  0x14, 0x00, 0x10, 0x00, 0x0c, 0x00, 0x04, 0x00, 0x0c, 0x00, 0x00, 0x00,
  0x87, 0x57, 0x59, 0x1a, 0xc3, 0x51, 0x39, 0xfa, 0x02, 0x00, 0x00, 0x00,
  0x02, 0x00, 0x00, 0x00, 0x04, 0x00, 0x00, 0x00, 0x06, 0x00, 0x00, 0x00,
  0x32, 0x2e, 0x31, 0x38, 0x2e, 0x30, 0x00, 0x00, 0x9e, 0xe8, 0xff, 0xff,
  0x04, 0x00, 0x00, 0x00, 0x10, 0x00, 0x00, 0x00, 0x31, 0x2e, 0x35, 0x2e,
  0x30, 0x00, 0x00, 0x00, 0x00, 0x00, 0x00, 0x00, 0x00, 0x00, 0x00, 0x00,
  0x0c, 0xe5, 0xff, 0xff, 0x10, 0xe5, 0xff, 0xff, 0x14, 0xe5, 0xff, 0xff,
  0x18, 0xe5, 0xff, 0xff, 0xca, 0xe8, 0xff, 0xff, 0x04, 0x00, 0x00, 0x00,
  0x50, 0x16, 0x00, 0x00, 0x24, 0x29, 0xdb, 0x3d, 0x40, 0x85, 0x61, 0xbd,
  0x62, 0xa1, 0x72, 0xbd, 0x54, 0x1e, 0xdb, 0xbd, 0x40, 0x0b, 0x80, 0xbd,
  0x30, 0x3d, 0x51, 0x3d, 0x4a, 0xac, 0x9a, 0xbd, 0x32, 0x77, 0x2f, 0xbd,
  0xb3, 0xbb, 0xf5, 0xbd, 0x07, 0xe7, 0xf0, 0xbd, 0x00, 0x6b, 0x04, 0x3d,
  0x70, 0xca, 0xce, 0xbd, 0x68, 0x19, 0xd0, 0x3d, 0x80, 0xa1, 0xa4, 0x3d,
  0x10, 0x68, 0xe1, 0x3c, 0xdc, 0x78, 0x15, 0x3d, 0x00, 0x18, 0x87, 0x38,
  0x70, 0x26, 0x77, 0x3c, 0x80, 0x6f, 0x33, 0x3d, 0x70, 0xfa, 0x83, 0xbb,
  0xac, 0x8f, 0x9b, 0xbc, 0x00, 0xbf, 0x6b, 0x3a, 0xe4, 0x1a, 0xde, 0xbd,
  0x04, 0x8c, 0x28, 0xbd, 0xc0, 0x6c, 0xdb, 0xbb, 0x2a, 0x87, 0xd4, 0xbd,
  0x2d, 0x3a, 0x84, 0xbd, 0xd8, 0x83, 0xee, 0xbc, 0x98, 0x0e, 0x5f, 0x3d,
  0x78, 0x9b, 0x1a, 0xbd, 0xd8, 0x9d, 0xb9, 0x3d, 0x74, 0x6f, 0x2c, 0x3d,
  0x60, 0xa5, 0x0a, 0x3c, 0x10, 0x06, 0x25, 0x3c, 0x1a, 0x1f, 0x68, 0xbd,
  0xd8, 0xf4, 0x6e, 0x3d, 0x20, 0xd4, 0xe3, 0x3b, 0xc0, 0x42, 0xec, 0x3b,
  0xd0, 0x6e, 0x9d, 0x3c, 0xfe, 0xae, 0xbe, 0xbd, 0x6c, 0x4a, 0x57, 0x3d,
  0x14, 0x42, 0x48, 0x3d, 0x64, 0x7f, 0x8d, 0xbd, 0x20, 0x18, 0xa9, 0xbd,
  0xfa, 0xd6, 0x5f, 0xbd, 0x4e, 0x1b, 0xe9, 0x3d, 0xe4, 0xeb, 0x1c, 0xbd,
  0x20, 0xae, 0x14, 0x3c, 0x0e, 0xe5, 0x35, 0xbd, 0x00, 0xdf, 0x8c, 0xbc,
  0x00, 0x94, 0xf3, 0x3b, 0x9c, 0xa9, 0xca, 0xbd, 0x3e, 0x97, 0xe8, 0x3d,
  0x7c, 0x29, 0x92, 0x3d, 0xe0, 0xb9, 0xe8, 0x3d, 0xc0, 0xe6, 0x62, 0x3d,
  0x20, 0xcc, 0xd3, 0x3b, 0xcc, 0x1a, 0xef, 0x3d, 0x68, 0xeb, 0x48, 0xbc,
  0xac, 0x98, 0xb5, 0x3d, 0xc0, 0x33, 0x10, 0xbc, 0xd2, 0x49, 0xa9, 0xbd,
  0xdc, 0x5c, 0x16, 0x3d, 0xc4, 0xca, 0xcf, 0x3d, 0x40, 0x99, 0xed, 0x3b,
  0x60, 0x40, 0xa2, 0x3c, 0x44, 0xa3, 0xe0, 0x3d, 0x4a, 0xc7, 0xe9, 0x3d,
  0x34, 0x2b, 0xdb, 0xbd, 0xb4, 0x5a, 0x05, 0x3d, 0xd2, 0x10, 0x55, 0xbd,
  0x14, 0x7e, 0xac, 0x3d, 0x22, 0x6b, 0xce, 0xbd, 0x1a, 0x8a, 0xff, 0xbd,
  0xe8, 0x4c, 0xbf, 0x3c, 0xbc, 0x34, 0x2e, 0xbd, 0xed, 0x7d, 0x91, 0xbd,
  0x80, 0xd3, 0x16, 0xbd, 0x9d, 0xb9, 0xba, 0xbd, 0x88, 0x3a, 0x57, 0xbd,
  0x0e, 0x55, 0x8c, 0x3d, 0x10, 0x43, 0xa7, 0xbd, 0x1c, 0x61, 0x4f, 0x3d,
  0xf2, 0x29, 0x7b, 0xbd, 0x68, 0x22, 0xc3, 0x3d, 0x16, 0x4d, 0x33, 0xbd,
  0xaa, 0x96, 0x6c, 0xbd, 0x9f, 0xf3, 0x8f, 0xbd, 0xd0, 0xb4, 0xdd, 0x3c,
  0x24, 0x4c, 0x9c, 0xbd, 0xee, 0xc4, 0xc7, 0xbd, 0x40, 0xe6, 0x9c, 0x3d,
  0xe0, 0x69, 0x35, 0xbd, 0x16, 0x8d, 0xde, 0xbd, 0x38, 0x63, 0xd7, 0x3d,
  0x60, 0xe3, 0x9a, 0xbd, 0x62, 0xad, 0xbe, 0x3d, 0xc2, 0x7b, 0xab, 0x3d,
  0x8b, 0xaf, 0xae, 0xbd, 0x8b, 0x72, 0x00, 0x3e, 0xce, 0x49, 0xa1, 0xbd,
  0x70, 0xd4, 0x00, 0x3c, 0xec, 0xe4, 0x24, 0x3d, 0x2c, 0xe2, 0xe7, 0x3d,
  0x9b, 0xbb, 0x93, 0xbd, 0xc4, 0x7a, 0x70, 0xbd, 0xd0, 0x2a, 0xff, 0xbd,
  0x02, 0x3f, 0xa4, 0x3d, 0xd0, 0x67, 0x2c, 0x3c, 0x70, 0xab, 0xbe, 0x3c,
  0x3a, 0x61, 0xf0, 0x3d, 0xcc, 0x64, 0xa7, 0xbc, 0x44, 0x48, 0xc0, 0xbd,
  0x63, 0xab, 0x01, 0x3e, 0x92, 0xec, 0x35, 0xbd, 0x40, 0xfa, 0x99, 0x3b,
  0x60, 0xdb, 0x2a, 0x3d, 0xe8, 0x01, 0xd0, 0x3c, 0x80, 0xd8, 0x25, 0x3b,
  0xf4, 0xfa, 0xe9, 0x3d, 0x26, 0xfa, 0x38, 0xbd, 0xdd, 0xf3, 0x03, 0xbe,
  0xae, 0xd9, 0x03, 0xbe, 0xb0, 0x1c, 0xcf, 0xbd, 0x92, 0xa5, 0xb2, 0xbd,
  0x08, 0x9e, 0x37, 0x3d, 0xe0, 0xc6, 0x6d, 0x3d, 0x9a, 0x4e, 0xd1, 0x3d,
  0x5b, 0x11, 0xc6, 0xbd, 0xfe, 0xcf, 0xd5, 0xbd, 0x00, 0x59, 0x52, 0x3d,
  0x22, 0x90, 0xec, 0x3d, 0x98, 0x63, 0x40, 0x3d, 0xb0, 0xed, 0x7d, 0x3d,
  0x2a, 0x9d, 0x8b, 0xbd, 0xd6, 0x1f, 0xcc, 0x3d, 0x30, 0x75, 0xb4, 0x3c,
  0x5e, 0xff, 0xe9, 0x3d, 0x18, 0x0a, 0xd4, 0x3d, 0x2c, 0xe3, 0xb0, 0x3d,
  0x28, 0xee, 0x69, 0xbd, 0xce, 0x52, 0xd9, 0x3d, 0x70, 0xb1, 0x66, 0x3c,
  0x64, 0x27, 0xed, 0x3d, 0xca, 0x2c, 0xec, 0x3d, 0x6a, 0x89, 0x9d, 0xbd,
  0x76, 0xa5, 0x00, 0xbe, 0x0a, 0x82, 0xe4, 0x3d, 0x81, 0x60, 0xd0, 0xbd,
  0x66, 0x37, 0x3d, 0xbd, 0x40, 0x89, 0xe3, 0xbc, 0xb8, 0x0a, 0x22, 0xbd,
  0x7a, 0x24, 0x93, 0x3d, 0x43, 0x1d, 0xe6, 0xbd, 0x94, 0xd1, 0xd1, 0xbc,
  0x4a, 0x89, 0x99, 0x3d, 0x90, 0xfd, 0xa5, 0x3c, 0x5c, 0x34, 0x65, 0x3d,
  0xf0, 0x9a, 0x7a, 0xbd, 0x14, 0x07, 0x0b, 0x3d, 0xb8, 0xa5, 0xd1, 0x3d,
  0x88, 0xd7, 0x1f, 0x3d, 0xc0, 0x61, 0xb3, 0xbb, 0x8a, 0xc7, 0x8d, 0xbd,
  0xec, 0x1f, 0x7b, 0x3d, 0xdc, 0x4d, 0xed, 0xbc, 0x3e, 0xe2, 0xcb, 0x3d,
  0x20, 0xfb, 0xa5, 0x3b, 0xd0, 0x6b, 0xb7, 0xbc, 0x40, 0x2f, 0xf8, 0xbd,
  0x18, 0x36, 0xb8, 0x3c, 0xd8, 0x56, 0x38, 0xbc, 0x80, 0xe8, 0x17, 0x3b,
  0x5c, 0x34, 0x62, 0x3d, 0xd8, 0x54, 0x53, 0x3d, 0x36, 0x1e, 0x01, 0xbe,
  0x2c, 0xf7, 0x44, 0x3d, 0x80, 0x16, 0x90, 0x3a, 0xe5, 0x74, 0xc1, 0xbd,
  0xea, 0xc3, 0x3b, 0xbd, 0x80, 0xf1, 0x6f, 0x3d, 0x08, 0xd1, 0xb3, 0x3d,
  0xa4, 0x89, 0xd3, 0x3d, 0x80, 0xd1, 0xd1, 0xbc, 0x76, 0xdf, 0xaf, 0x3d,
  0x08, 0x05, 0xba, 0xbd, 0x78, 0xb1, 0xa3, 0xbd, 0xf8, 0xcd, 0x32, 0x3d,
  0x80, 0xc7, 0xf7, 0xbd, 0x2a, 0x85, 0xaf, 0xbd, 0x60, 0x4e, 0x84, 0x3c,
  0x59, 0x4e, 0x02, 0x3e, 0xb0, 0x8d, 0xcf, 0xbd, 0xa4, 0xfd, 0x3b, 0x3d,
  0x68, 0xa7, 0xd8, 0xbd, 0x30, 0xc7, 0x32, 0x3c, 0xd0, 0x28, 0xdd, 0xbd,
  0x48, 0x55, 0xe6, 0xbc, 0x95, 0xe8, 0x97, 0xbd, 0xc0, 0x0e, 0xe9, 0x3d,
  0x84, 0x0b, 0x17, 0xbd, 0x06, 0x3c, 0x8b, 0xbd, 0x68, 0x4f, 0x4f, 0xbc,
  0x40, 0x1d, 0x79, 0xbb, 0x90, 0x9b, 0x96, 0xbd, 0xdd, 0x4c, 0xb4, 0xbd,
  0x30, 0x70, 0x1c, 0x3d, 0x09, 0xf9, 0x00, 0xbe, 0x0e, 0xe4, 0xb9, 0x3d,
  0x8c, 0x24, 0x7e, 0x3d, 0xbe, 0x3b, 0xfc, 0x3d, 0x81, 0x74, 0x02, 0xbe,
  0x9a, 0xb2, 0x8c, 0xbd, 0xf8, 0x7d, 0x31, 0xbd, 0x98, 0x78, 0xe6, 0x3c,
  0xe8, 0xc6, 0xd0, 0x3c, 0x22, 0x4e, 0xb3, 0x3d, 0x3e, 0xdf, 0xfd, 0x3d,
  0x25, 0x98, 0xe8, 0xbd, 0x2a, 0x57, 0x30, 0xbd, 0xa0, 0x06, 0xe3, 0xbd,
  0x06, 0xb7, 0x82, 0x3d, 0x36, 0xa4, 0x7f, 0xbd, 0xf8, 0xdd, 0x06, 0x3d,
  0xbc, 0xf6, 0xe9, 0xbc, 0x2e, 0x98, 0x3b, 0xbd, 0x4c, 0x87, 0x97, 0xbd,
  0xac, 0x1b, 0x63, 0xbd, 0x40, 0x19, 0xd1, 0x3d, 0x48, 0x1a, 0xa1, 0x3d,
  0x4e, 0xc5, 0xc0, 0xbd, 0xe8, 0xc2, 0x67, 0xbc, 0x4b, 0xf2, 0xe0, 0xbd,
  0x5f, 0xdc, 0x01, 0xbe, 0x90, 0xc6, 0xb0, 0x3d, 0xb0, 0x3e, 0xa5, 0x3c,
  0xd6, 0x9c, 0xf9, 0x3d, 0x48, 0xc1, 0x8a, 0xbc, 0x18, 0x9f, 0xf6, 0x3d,
  0x52, 0xb4, 0xac, 0x3d, 0x0a, 0xe6, 0x51, 0xbd, 0x09, 0x30, 0x9c, 0xbd,
  0x9a, 0x69, 0x00, 0xbe, 0xb4, 0x7a, 0x05, 0x3d, 0xb7, 0x1f, 0xf8, 0xbd,
  0xb4, 0x65, 0x72, 0x3d, 0xe0, 0xdf, 0x90, 0xbb, 0x66, 0x0f, 0xff, 0x3d,
  0xf8, 0x86, 0x94, 0x3c, 0x30, 0x3e, 0xfc, 0xbd, 0x44, 0x00, 0xe5, 0xbd,
  0xe0, 0x47, 0xb4, 0x3c, 0x50, 0x5e, 0xb4, 0x3c, 0xb6, 0xed, 0xf7, 0xbd,
  0xf2, 0x18, 0x98, 0xbd, 0xc7, 0x73, 0xc4, 0xbd, 0x4e, 0xe8, 0x55, 0xbd,
  0x46, 0x7f, 0x8c, 0x3d, 0x5a, 0x17, 0xfb, 0x3d, 0x66, 0xb2, 0xaf, 0x3d,
  0x5c, 0x90, 0xa1, 0xbd, 0x80, 0xd0, 0x69, 0x3c, 0xb2, 0x0b, 0xb1, 0xbd,
  0xa8, 0x71, 0xba, 0x3c, 0xa6, 0x52, 0x93, 0x3d, 0x80, 0x86, 0x2c, 0xbc,
  0x06, 0x49, 0xa7, 0xbd, 0x30, 0xbf, 0x66, 0xbd, 0xbf, 0x54, 0x98, 0xbd,
  0xd0, 0x3f, 0xd9, 0xbb, 0x60, 0xc6, 0x1c, 0xbd, 0x82, 0x46, 0xf9, 0x3d,
  0xf0, 0x80, 0x2c, 0x3c, 0x40, 0x83, 0xb6, 0x3c, 0x04, 0xec, 0x57, 0x3d,
  0xa4, 0x1a, 0xc1, 0xbc, 0x84, 0x2d, 0x38, 0xbd, 0xc5, 0x18, 0xbe, 0xbd,
  0x44, 0x8c, 0xbe, 0xbd, 0x60, 0xdc, 0xa8, 0x3b, 0xac, 0xaa, 0x28, 0xbd,
  0xae, 0x3d, 0xd1, 0x3d, 0xa6, 0x1e, 0x03, 0xbd, 0xb8, 0xac, 0xc5, 0xbc,
  0xde, 0x0a, 0xb7, 0x3d, 0xbe, 0x83, 0xe4, 0x3d, 0x10, 0x87, 0x71, 0x3c,
  0x7c, 0xed, 0x27, 0x3d, 0xb0, 0x7b, 0xd4, 0xbd, 0x00, 0x98, 0x28, 0x3c,
  0x60, 0x5e, 0xb1, 0x3c, 0x1e, 0xe1, 0xab, 0x3d, 0x04, 0xed, 0x70, 0x3d,
  0xb8, 0x69, 0xaa, 0x3d, 0xba, 0x7f, 0x2d, 0xbd, 0x20, 0x6a, 0x8b, 0xbb,
  0x1e, 0xd8, 0xb2, 0x3d, 0x6d, 0x52, 0xde, 0xbd, 0x03, 0xc6, 0xfd, 0xbd,
  0x56, 0x3b, 0xf9, 0x3d, 0xe8, 0xc6, 0x54, 0x3d, 0xfa, 0x89, 0xe3, 0xbd,
  0xee, 0x01, 0xb9, 0xbd, 0x38, 0x0a, 0xe2, 0x3c, 0x7f, 0x0e, 0xb8, 0xbd,
  0xcc, 0x87, 0x60, 0x3d, 0x4a, 0x7b, 0xf9, 0x3d, 0xd8, 0x2f, 0x30, 0x3d,
  0x16, 0x55, 0xe2, 0x3d, 0x54, 0xdf, 0xcc, 0x3d, 0x80, 0xbc, 0x6b, 0xbd,
  0x48, 0xb8, 0x5c, 0x3d, 0x3a, 0xeb, 0x4a, 0xbd, 0x4e, 0x51, 0x44, 0xbd,
  0x30, 0xd7, 0x32, 0xbd, 0x0c, 0xda, 0xb9, 0x3d, 0xd5, 0xf8, 0xa5, 0xbd,
  0x14, 0x3d, 0x91, 0xbd, 0x06, 0x9c, 0xb1, 0xbd, 0xf0, 0x2f, 0xd6, 0xbb,
  0x5e, 0x29, 0xfe, 0x3d, 0x00, 0x58, 0x1a, 0xba, 0x3a, 0x35, 0xa9, 0x3d,
  0x28, 0x63, 0x32, 0xbd, 0x29, 0x41, 0xe1, 0xbd, 0x80, 0xdf, 0x21, 0x3d,
  0xf0, 0x7e, 0xa9, 0xbd, 0x70, 0x08, 0x9d, 0x3c, 0x9e, 0x1f, 0x0c, 0xbd,
  0x79, 0xb6, 0x80, 0xbd, 0x9b, 0xec, 0xdc, 0xbd, 0x3a, 0xec, 0xb8, 0x3d,
  0x20, 0x8f, 0x86, 0xbd, 0x68, 0x73, 0x3e, 0xbc, 0x30, 0x09, 0x21, 0x3c,
  0xc4, 0xc2, 0xd2, 0x3d, 0x9e, 0x45, 0xaa, 0x3d, 0xa0, 0x15, 0xa5, 0x3c,
  0xf5, 0x00, 0x8e, 0xbd, 0x22, 0xc6, 0xc6, 0x3d, 0x52, 0x1c, 0xd4, 0x3d,
  0x10, 0xdf, 0xf3, 0xbd, 0x28, 0x76, 0xb2, 0x3c, 0xc2, 0x60, 0x9e, 0xbd,
  0xfc, 0x9e, 0x2b, 0xbd, 0x88, 0x2c, 0x8b, 0xbc, 0x9e, 0x41, 0x56, 0xbd,
  0x30, 0x86, 0x60, 0xbc, 0xf0, 0xe6, 0xea, 0x3d, 0x40, 0x95, 0x1f, 0x3c,
  0xd5, 0x6d, 0xbc, 0xbd, 0x28, 0xc5, 0x05, 0xbd, 0xa4, 0xe1, 0xdf, 0x3d,
  0xe8, 0xf6, 0x0a, 0xbd, 0x4a, 0x5a, 0x08, 0xbd, 0x2c, 0xa7, 0x2d, 0x3d,
  0x48, 0x23, 0x23, 0xbc, 0xd4, 0xd3, 0x9f, 0x3d, 0x28, 0x9d, 0xe6, 0xbc,
  0xe5, 0x04, 0x01, 0x3e, 0xbc, 0x59, 0xae, 0x3d, 0xb6, 0xba, 0xa5, 0x3d,
  0x28, 0x14, 0xa7, 0xbc, 0x5d, 0x4b, 0xdd, 0xbd, 0x82, 0x74, 0x9f, 0x3d,
  0x50, 0xaf, 0xb2, 0x3c, 0x00, 0x84, 0x66, 0x3b, 0xc8, 0x52, 0xd5, 0x3c,
  0xd6, 0x97, 0xfa, 0x3d, 0xc4, 0x3d, 0x79, 0x3d, 0x9c, 0x69, 0x34, 0x3d,
  0x88, 0x31, 0x5e, 0x3d, 0xa0, 0x54, 0x4b, 0xbd, 0x88, 0x51, 0xab, 0x3c,
  0x7e, 0x2d, 0x84, 0xbd, 0x4a, 0xac, 0x00, 0xbd, 0x5a, 0x1d, 0xf9, 0x3d,
  0x88, 0x0e, 0x94, 0xbd, 0x2b, 0x55, 0xdb, 0xbd, 0xa0, 0x5e, 0xfd, 0x3c,
  0x80, 0x94, 0xbf, 0x3a, 0xac, 0xe3, 0x3e, 0x3d, 0xd1, 0xb5, 0x01, 0x3e,
  0xbc, 0x97, 0x82, 0x3d, 0x78, 0xbb, 0x7c, 0x3d, 0x5c, 0x61, 0x23, 0x3d,
  0x7a, 0x2f, 0xb6, 0x3d, 0xb8, 0xb9, 0x28, 0x3d, 0x08, 0xbb, 0xb5, 0x3c,
  0xcc, 0x45, 0xfd, 0xbc, 0x14, 0x88, 0x4f, 0x3d, 0x58, 0x9e, 0x33, 0xbc,
  0x28, 0xdc, 0xe5, 0x3d, 0xc0, 0x3f, 0x9e, 0x3b, 0x3b, 0xc4, 0x01, 0xbe,
  0x3c, 0x90, 0xbf, 0x3d, 0x24, 0xa4, 0xaf, 0xbd, 0xc0, 0x9f, 0xaa, 0x3c,
  0x52, 0x44, 0xa8, 0xbd, 0x60, 0x79, 0xcf, 0x3c, 0x5c, 0xf3, 0x97, 0x3d,
  0xba, 0x1a, 0x9a, 0x3d, 0x36, 0xe0, 0x01, 0xbe, 0x20, 0x93, 0x43, 0x3d,
  0xbe, 0x24, 0xfc, 0x3d, 0x40, 0x5f, 0x1c, 0x3c, 0x38, 0x71, 0xac, 0x3c,
  0x08, 0xb7, 0x02, 0x3d, 0x10, 0x52, 0x0d, 0x3d, 0xf6, 0x2b, 0xe7, 0xbd,
  0x3e, 0xc7, 0xef, 0x3d, 0x34, 0x39, 0x09, 0x3d, 0xb4, 0x28, 0x83, 0x3d,
  0x80, 0xdb, 0xc8, 0xba, 0x80, 0x9c, 0xb2, 0x3b, 0xc0, 0xa2, 0xd8, 0xbb,
  0x8c, 0xb2, 0x2d, 0x3d, 0x18, 0x25, 0x76, 0x3d, 0x06, 0x48, 0xcb, 0xbd,
  0x1e, 0xe5, 0xbc, 0x3d, 0xdc, 0x9a, 0xbd, 0xbd, 0xe8, 0xc7, 0xc3, 0xbc,
  0x56, 0xaa, 0xdb, 0xbd, 0x50, 0x5a, 0xbb, 0xbd, 0x00, 0xa8, 0x41, 0xba,
  0x10, 0x9f, 0xa3, 0x3c, 0x28, 0x0e, 0x31, 0x3d, 0xb4, 0x0c, 0xe8, 0xbd,
  0x40, 0x03, 0xa3, 0xbc, 0xd2, 0x15, 0xe7, 0xbd, 0xb8, 0xb2, 0xf9, 0xbc,
  0xf2, 0x9a, 0x94, 0xbd, 0x18, 0x29, 0x1c, 0xbc, 0xfe, 0xd4, 0xce, 0x3d,
  0xbc, 0x8c, 0x08, 0x3d, 0x02, 0x39, 0xab, 0xbd, 0x10, 0xf8, 0x93, 0xbc,
  0x2a, 0x60, 0x03, 0xbe, 0xe0, 0x39, 0xab, 0x3c, 0x50, 0x8a, 0x08, 0x3d,
  0xb8, 0xb8, 0xfb, 0xbc, 0x78, 0x5a, 0x1d, 0xbd, 0x10, 0xd4, 0xd2, 0x3c,
  0xdc, 0x7d, 0x95, 0xbd, 0x34, 0xf8, 0xcf, 0x3d, 0xa7, 0x3f, 0x8c, 0xbd,
  0xb6, 0x5d, 0xcf, 0x3d, 0x76, 0x16, 0x3e, 0xbd, 0x04, 0x2c, 0xf1, 0xbd,
  0x04, 0xc3, 0xe5, 0xbc, 0x6c, 0xdf, 0x80, 0x3d, 0x32, 0x64, 0xcc, 0x3d,
  0xf8, 0xd9, 0xbd, 0xbd, 0x10, 0x7b, 0xc5, 0x3d, 0x06, 0xad, 0x0f, 0xbd,
  0x78, 0x1b, 0x8b, 0x3d, 0x0a, 0x6f, 0xf5, 0xbd, 0xd8, 0x30, 0x19, 0xbd,
  0x6a, 0xee, 0x87, 0x3d, 0x38, 0x5a, 0xcc, 0x3d, 0x30, 0x64, 0xad, 0x3d,
  0xee, 0x41, 0x80, 0x3d, 0x88, 0x96, 0x74, 0x3d, 0x14, 0x18, 0xb3, 0x3d,
  0x21, 0x10, 0x02, 0x3e, 0x00, 0xeb, 0x8d, 0xba, 0xfa, 0xc1, 0x11, 0xbd,
  0x4c, 0x8b, 0xe6, 0x3d, 0xee, 0x6c, 0x34, 0xbd, 0x6e, 0xe0, 0x72, 0xbd,
  0xbe, 0x74, 0xf1, 0xbd, 0x70, 0x08, 0xa4, 0xbd, 0xa8, 0x35, 0x0b, 0x3d,
  0x9a, 0x92, 0xb3, 0x3d, 0x30, 0x46, 0x6c, 0x3d, 0xae, 0x8d, 0xe7, 0x3d,
  0xe8, 0xe2, 0xd9, 0x3d, 0x28, 0x6f, 0xe9, 0x3d, 0x9c, 0x0e, 0xd9, 0xbd,
  0xd4, 0x5f, 0xb3, 0xbd, 0x46, 0x54, 0xb3, 0x3d, 0xd7, 0x1b, 0xbc, 0xbd,
  0x58, 0x01, 0xd0, 0x3d, 0x43, 0x09, 0x87, 0xbd, 0xb6, 0x74, 0x97, 0x3d,
  0xb0, 0x64, 0x16, 0xbc, 0x52, 0xf6, 0xe0, 0x3d, 0x58, 0xa1, 0x3d, 0xbd,
  0x10, 0x6f, 0xa6, 0x3c, 0x4f, 0x5b, 0xd3, 0xbd, 0x0e, 0xf5, 0x20, 0xbd,
  0x40, 0x33, 0x7b, 0x3c, 0xe8, 0xbb, 0x96, 0x3d, 0x08, 0xe6, 0xf1, 0x3d,
  0xf4, 0xd6, 0xbd, 0x3d, 0xb8, 0xb0, 0x15, 0xbc, 0x8c, 0xbc, 0x15, 0x3d,
  0x2e, 0xe7, 0xf9, 0x3d, 0x61, 0x9a, 0xe6, 0xbd, 0x20, 0xa6, 0x30, 0xbd,
  0xbc, 0xb3, 0x00, 0xbd, 0xf4, 0x18, 0xf5, 0x3d, 0xce, 0xce, 0xca, 0xbd,
  0x5b, 0x0c, 0xc9, 0xbd, 0x52, 0xce, 0xfc, 0xbd, 0x50, 0xa8, 0xc8, 0x3d,
  0xa0, 0xf1, 0xd3, 0x3c, 0x74, 0xc3, 0x8b, 0x3d, 0x1a, 0x53, 0x8c, 0xbd,
  0x3a, 0xd9, 0xa4, 0xbd, 0x92, 0xc0, 0xfb, 0xbd, 0x02, 0xe0, 0xac, 0xbd,
  0xe8, 0xb4, 0x1c, 0x3d, 0xb8, 0x05, 0xc1, 0x3d, 0x80, 0x18, 0x56, 0x3d,
  0xcc, 0xc5, 0x55, 0x3d, 0x64, 0x92, 0xd6, 0xbc, 0xec, 0x90, 0x4b, 0x3d,
  0xfc, 0xd6, 0xdd, 0x3d, 0xf3, 0x35, 0xee, 0xbd, 0xa8, 0xa9, 0xac, 0xbd,
  0xf2, 0xb6, 0x51, 0xbd, 0x6e, 0x61, 0x98, 0xbd, 0xe8, 0xf3, 0x44, 0xbc,
  0xa2, 0x98, 0xd4, 0xbd, 0xd0, 0xd9, 0x71, 0x3d, 0x14, 0x62, 0xf0, 0xbc,
  0x80, 0x32, 0xc5, 0xbd, 0x64, 0x16, 0x0b, 0x3d, 0x66, 0xa5, 0xe6, 0xbd,
  0xe0, 0x3f, 0x75, 0x3c, 0x00, 0xb1, 0x06, 0x3b, 0x21, 0x33, 0x03, 0x3e,
  0xa0, 0xb0, 0xf9, 0x3b, 0x92, 0xae, 0xcd, 0xbd, 0x8c, 0xad, 0x44, 0x3d,
  0xf0, 0x7f, 0xc6, 0x3d, 0xf4, 0xae, 0x97, 0x3d, 0x8c, 0xac, 0x39, 0x3d,
  0xcd, 0x2b, 0x80, 0xbd, 0x00, 0x6d, 0x4e, 0xba, 0xb2, 0xfa, 0x06, 0xbd,
  0xf0, 0x1a, 0x1b, 0xbd, 0x7c, 0x83, 0xe3, 0xbd, 0x75, 0x96, 0xe1, 0xbd,
  0x70, 0x79, 0x79, 0x3c, 0xb0, 0x07, 0xc6, 0xbd, 0x0d, 0x96, 0x81, 0xbd,
  0x48, 0xcb, 0x95, 0x3c, 0x00, 0xdd, 0xe0, 0x3c, 0xe0, 0x7c, 0xb2, 0xbd,
  0x0e, 0x4a, 0x12, 0xbd, 0xf5, 0xc9, 0xf4, 0xbd, 0xd6, 0xe6, 0x0d, 0xbd,
  0xa2, 0x70, 0x85, 0x3d, 0xf0, 0x37, 0x9b, 0x3c, 0x0c, 0x28, 0x49, 0x3d,
  0x68, 0x9c, 0x57, 0xbc, 0x40, 0x17, 0xe9, 0x3c, 0xc8, 0x08, 0x7d, 0x3d,
  0x80, 0xcb, 0x89, 0xbb, 0x00, 0x60, 0x94, 0x3a, 0xc0, 0xe1, 0x84, 0x3c,
  0xfa, 0x37, 0xb3, 0x3d, 0x28, 0x01, 0x02, 0x3d, 0x00, 0x97, 0xaa, 0xba,
  0x20, 0x9e, 0xf5, 0x3d, 0x00, 0xff, 0x1a, 0x3d, 0xc8, 0x70, 0xf1, 0xbd,
  0x6a, 0xe6, 0x68, 0xbd, 0xa0, 0xda, 0xeb, 0xbc, 0x74, 0x83, 0x34, 0x3d,
  0x70, 0xe9, 0x78, 0x3c, 0x89, 0xcf, 0xcc, 0xbd, 0x4b, 0x86, 0xd0, 0xbd,
  0x5e, 0x73, 0xd7, 0xbd, 0x71, 0x33, 0x8d, 0xbd, 0xc0, 0x1e, 0x92, 0x3c,
  0xcc, 0x51, 0x36, 0x3d, 0x52, 0x9c, 0x2e, 0xbd, 0xa6, 0x8e, 0xa5, 0x3d,
  0x80, 0x3f, 0xd8, 0xbd, 0x3c, 0xff, 0xcb, 0x3d, 0x02, 0xa6, 0xa3, 0xbd,
  0x74, 0x2d, 0x07, 0xbd, 0xaa, 0xdc, 0x6c, 0xbd, 0xd8, 0x7e, 0x41, 0x3d,
  0xe4, 0xd3, 0xfa, 0xbc, 0xe0, 0xda, 0x6f, 0x3c, 0xf8, 0x32, 0x1b, 0xbc,
  0x8e, 0xd3, 0xea, 0x3d, 0x64, 0x51, 0x7a, 0x3d, 0xd0, 0xf4, 0x6f, 0x3c,
  0x5a, 0x6b, 0xa7, 0xbd, 0x50, 0x8f, 0xe5, 0x3c, 0x8e, 0x4a, 0xfa, 0x3d,
  0x82, 0x95, 0x82, 0xbd, 0x0e, 0xb0, 0x29, 0xbd, 0x8b, 0x71, 0x98, 0xbd,
  0x10, 0x83, 0xba, 0xbd, 0xd6, 0x18, 0xcb, 0xbd, 0x80, 0x62, 0xcc, 0x3d,
  0xa8, 0x12, 0xae, 0xbc, 0x14, 0xa5, 0x9c, 0xbd, 0xa0, 0x9e, 0x02, 0x3c,
  0xc0, 0xd9, 0xbe, 0x3d, 0x63, 0x5a, 0x90, 0xbd, 0x2d, 0xc1, 0x96, 0xbd,
  0x90, 0xd7, 0x07, 0x3d, 0x5c, 0x12, 0x53, 0xbd, 0x52, 0xc3, 0xa3, 0x3d,
  0x48, 0x96, 0xaa, 0x3c, 0xd7, 0x3b, 0x03, 0x3e, 0x56, 0xc4, 0x82, 0x3d,
  0x60, 0x0b, 0xb9, 0x3d, 0xf8, 0x48, 0x94, 0x3d, 0xac, 0x3e, 0x85, 0x3d,
  0x20, 0xbb, 0x42, 0x3c, 0x00, 0x7c, 0xd6, 0xba, 0x40, 0xd2, 0xfb, 0x3c,
  0xc0, 0x73, 0x6a, 0xbb, 0xac, 0xde, 0xe6, 0x3d, 0x60, 0x9b, 0xb0, 0x3d,
  0xac, 0x2c, 0x24, 0x3d, 0x6c, 0x35, 0x08, 0xbd, 0xf4, 0x17, 0xb0, 0xbc,
  0x80, 0x95, 0x9a, 0xba, 0xb8, 0x2b, 0x00, 0x3d, 0x80, 0x0f, 0x83, 0x3d,
  0xbc, 0x4b, 0x7e, 0x3d, 0xe8, 0xee, 0xa8, 0x3c, 0xb8, 0x70, 0xf7, 0x3d,
  0x9e, 0xcb, 0xfa, 0x3d, 0x67, 0xee, 0x01, 0xbe, 0xf0, 0x3a, 0x21, 0xbc,
  0x7e, 0xdd, 0x9f, 0x3d, 0xad, 0x30, 0x02, 0xbe, 0xa0, 0x45, 0x4f, 0x3d,
  0xcc, 0x0a, 0xaa, 0x3d, 0x42, 0xab, 0xfc, 0x3d, 0x95, 0x71, 0xf0, 0xbd,
  0xf8, 0x9e, 0x39, 0xbd, 0xf4, 0xf2, 0x60, 0x3d, 0xe0, 0x3c, 0xa4, 0x3d,
  0x48, 0x14, 0x28, 0xbd, 0x6a, 0x0a, 0xa2, 0xbd, 0xa4, 0x4e, 0x47, 0x3d,
  0x70, 0xc1, 0x6e, 0xbd, 0x70, 0x69, 0x16, 0x3c, 0x94, 0xdc, 0x56, 0x3d,
  0x02, 0xae, 0x34, 0xbd, 0x22, 0x42, 0x45, 0xbd, 0x06, 0x08, 0xe7, 0xbd,
  0x92, 0x22, 0x96, 0x3d, 0xe0, 0x3b, 0x8f, 0x3d, 0x90, 0x9b, 0x98, 0xbb,
  0xe8, 0x29, 0x3e, 0x3d, 0x7e, 0xe2, 0x98, 0xbd, 0x00, 0x54, 0x43, 0xbc,
  0x78, 0x56, 0xb9, 0xbd, 0x19, 0x6c, 0xde, 0xbd, 0x30, 0x64, 0xd8, 0x3c,
  0x90, 0x79, 0x64, 0x3d, 0x28, 0xc3, 0x89, 0x3d, 0x9c, 0x87, 0xf0, 0xbd,
  0xac, 0x63, 0x81, 0x3d, 0xf8, 0x8b, 0x5e, 0x3d, 0xb2, 0xd9, 0xb4, 0x3d,
  0x94, 0x19, 0x12, 0x3d, 0x95, 0x5e, 0xe4, 0xbd, 0x40, 0xc0, 0x86, 0x3b,
  0x7b, 0x47, 0x87, 0xbd, 0xd4, 0xa2, 0x48, 0x3d, 0x00, 0x93, 0x19, 0xbb,
  0x70, 0x17, 0xb7, 0x3c, 0x68, 0x44, 0xce, 0x3d, 0x70, 0xef, 0x9e, 0x3c,
  0xd0, 0xdb, 0x1a, 0x3c, 0x97, 0xce, 0x01, 0x3e, 0x14, 0x79, 0xaf, 0x3d,
  0x2e, 0x01, 0xbb, 0x3d, 0x00, 0xfb, 0xaf, 0xba, 0x26, 0xb6, 0x41, 0xbd,
  0x01, 0x1f, 0xa9, 0xbd, 0x3b, 0x6d, 0xd7, 0xbd, 0x93, 0xd7, 0xfd, 0xbd,
  0xf0, 0x28, 0x27, 0xbd, 0x1a, 0x6a, 0xd3, 0x3d, 0xa0, 0xe0, 0xad, 0x3b,
  0x48, 0x0b, 0xea, 0x3c, 0xac, 0x60, 0x9c, 0xbd, 0xde, 0x14, 0x32, 0xbd,
  0x94, 0xac, 0xca, 0x3d, 0xb2, 0x91, 0xba, 0x3d, 0xc0, 0xee, 0x35, 0x3b,
  0x10, 0x7b, 0xad, 0x3c, 0x80, 0x07, 0x22, 0xbd, 0xf6, 0xce, 0xda, 0x3d,
  0xbe, 0x30, 0x9c, 0xbd, 0x50, 0xa9, 0xb7, 0x3d, 0x8e, 0x42, 0xe3, 0xbd,
  0xee, 0x78, 0xae, 0x3d, 0xe2, 0xf7, 0xb1, 0x3d, 0xd6, 0xe0, 0xdb, 0xbd,
  0xe8, 0xe4, 0xea, 0x3c, 0xb0, 0x6a, 0x5c, 0x3c, 0x40, 0x12, 0xb8, 0x3b,
  0x2f, 0x61, 0xd9, 0xbd, 0x06, 0xd5, 0xba, 0x3d, 0x2a, 0xb9, 0x0c, 0xbd,
  0x30, 0x63, 0x95, 0x3d, 0xb4, 0x9d, 0xc5, 0xbc, 0xd5, 0x9e, 0xf8, 0xbd,
  0x70, 0x43, 0x01, 0xbe, 0x08, 0x92, 0x03, 0xbe, 0x10, 0xfc, 0x9a, 0xbc,
  0x20, 0x70, 0xb5, 0xbd, 0x18, 0xf1, 0x21, 0xbd, 0x2c, 0x8d, 0x59, 0x3d,
  0x98, 0x48, 0xf3, 0xbc, 0xe6, 0x8d, 0x92, 0xbd, 0x74, 0x19, 0x4c, 0xbd,
  0x80, 0x20, 0xa9, 0xba, 0x98, 0x07, 0x81, 0xbd, 0xe1, 0x80, 0x02, 0xbe,
  0xfe, 0xf2, 0x61, 0xbd, 0x40, 0xd0, 0x1c, 0xbb, 0x90, 0x5c, 0x7a, 0xbc,
  0x98, 0x06, 0xf3, 0x3c, 0x04, 0x9e, 0xa7, 0x3d, 0x9c, 0xdc, 0x57, 0x3d,
  0xee, 0x9d, 0xaa, 0xbd, 0xa0, 0xcd, 0xe1, 0x3b, 0xd8, 0x61, 0xab, 0xbd,
  0x80, 0x74, 0x74, 0x3b, 0xf0, 0x16, 0x5e, 0x3d, 0xa0, 0xe0, 0x5f, 0x3c,
  0xe0, 0x22, 0xa1, 0xbd, 0x60, 0xe1, 0x5d, 0x3c, 0x70, 0x3f, 0x25, 0x3c,
  0xa8, 0x25, 0xbd, 0x3d, 0x22, 0x30, 0x98, 0x3d, 0x58, 0xd6, 0xd5, 0x3d,
  0x40, 0x25, 0x9d, 0x3c, 0x6b, 0x31, 0x82, 0xbd, 0x86, 0xeb, 0x22, 0xbd,
  0xb0, 0x8a, 0xf0, 0xbc, 0xe8, 0xdb, 0x47, 0x3d, 0x58, 0xee, 0xa0, 0x3c,
  0x40, 0xae, 0x3f, 0x3c, 0x90, 0x2d, 0xe6, 0x3c, 0x64, 0xa7, 0xe8, 0xbd,
  0x14, 0xbe, 0xfd, 0xbc, 0x00, 0x69, 0x0d, 0x3a, 0xf0, 0xa6, 0x47, 0x3c,
  0x40, 0xf8, 0x08, 0x3b, 0x50, 0x00, 0x33, 0x3d, 0x80, 0xe2, 0x4f, 0xbb,
  0xad, 0x80, 0x02, 0x3e, 0x06, 0x8d, 0xa9, 0xbd, 0x55, 0x9b, 0xf7, 0xbd,
  0x40, 0xf4, 0x19, 0x3d, 0x55, 0x82, 0x00, 0xbe, 0x64, 0x88, 0xed, 0x3d,
  0xa6, 0x1b, 0xbd, 0xbd, 0x0c, 0x20, 0xf6, 0xbd, 0xd0, 0x26, 0x3a, 0x3c,
  0x80, 0x43, 0xb0, 0x3b, 0xca, 0xa2, 0xb0, 0x3d, 0xb0, 0xb7, 0xd2, 0x3c,
  0xf3, 0xae, 0xbf, 0xbd, 0x02, 0x36, 0x4c, 0xbd, 0x7f, 0xfe, 0xf5, 0xbd,
  0x42, 0x6f, 0xaa, 0x3d, 0x3c, 0x1b, 0x93, 0xbc, 0xe8, 0xe4, 0x31, 0xbc,
  0xcc, 0xf6, 0x48, 0x3d, 0x60, 0xed, 0x47, 0xbd, 0xa0, 0x30, 0x34, 0xbd,
  0xb8, 0x51, 0xe4, 0x3c, 0x22, 0xee, 0xb5, 0x3d, 0xcc, 0x27, 0x2a, 0x3d,
  0x9e, 0x83, 0xbc, 0x3d, 0x35, 0x3a, 0x84, 0xbd, 0xc7, 0x4c, 0xe0, 0xbd,
  0x10, 0xa2, 0xc8, 0x3c, 0x3e, 0xbf, 0xa3, 0x3d, 0x9f, 0xea, 0x03, 0xbe,
  0x8a, 0xdd, 0x8e, 0x3d, 0x74, 0x65, 0xde, 0x3d, 0x94, 0xbf, 0x96, 0x3d,
  0x10, 0xa1, 0x09, 0x3c, 0x78, 0xc4, 0x2b, 0xbc, 0x80, 0x49, 0xaf, 0xba,
  0x62, 0x93, 0x14, 0xbd, 0x90, 0x6c, 0xfa, 0xbb, 0xbe, 0xfd, 0x0a, 0xbd,
  0xae, 0x0a, 0xef, 0x3d, 0xc2, 0x0f, 0xa5, 0x3d, 0x6a, 0xa2, 0x26, 0xbd,
  0x72, 0x2d, 0xb6, 0x3d, 0xca, 0x08, 0xab, 0xbd, 0x90, 0x22, 0x1f, 0x3d,
  0x80, 0x52, 0xed, 0x3c, 0xa0, 0xc8, 0x3a, 0xbc, 0x2e, 0xd7, 0xe5, 0x3d,
  0xfc, 0x45, 0x10, 0xbd, 0x60, 0xfb, 0x39, 0x3d, 0x68, 0x91, 0x52, 0xbd,
  0x40, 0x38, 0xa7, 0xbc, 0xc8, 0x23, 0xad, 0x3c, 0x00, 0x7e, 0x6f, 0x3a,
  0x71, 0xc8, 0xd3, 0xbd, 0xcc, 0xb7, 0x22, 0xbd, 0xfc, 0x30, 0xf2, 0xbd,
  0x7a, 0x71, 0xff, 0x3d, 0x8e, 0x72, 0xe1, 0xbd, 0x6e, 0xcc, 0xe1, 0x3d,
  0x0a, 0x57, 0xa1, 0xbd, 0x52, 0xe1, 0xca, 0xbd, 0xb0, 0x31, 0xae, 0x3d,
  0x5a, 0x4a, 0x3e, 0xbd, 0xe6, 0xc1, 0xbf, 0xbd, 0x20, 0x82, 0x57, 0x3c,
  0x0e, 0x65, 0xa1, 0x3d, 0x00, 0xcd, 0x65, 0xbb, 0x84, 0x8d, 0x87, 0x3d,
  0xf4, 0x84, 0x5f, 0xbd, 0x0c, 0x75, 0x9b, 0xbc, 0x24, 0xbd, 0x32, 0x3d,
  0x4e, 0x2d, 0xc8, 0x3d, 0xf2, 0x0f, 0xa7, 0x3d, 0xa0, 0xf0, 0x93, 0x3d,
  0x68, 0x5c, 0xe4, 0x3d, 0xcb, 0xe0, 0xf9, 0xbd, 0xa4, 0xb3, 0x8e, 0xbd,
  0x20, 0x21, 0x84, 0xbc, 0xb8, 0xcb, 0xc8, 0xbd, 0x0c, 0x27, 0x89, 0x3d,
  0x62, 0x84, 0x07, 0xbd, 0x74, 0x09, 0x40, 0x3d, 0x54, 0xd5, 0xf7, 0xbc,
  0xfe, 0x96, 0x8f, 0xbd, 0x4e, 0xd6, 0x68, 0xbd, 0x22, 0x90, 0xa9, 0xbd,
  0xe0, 0x09, 0x7b, 0x3d, 0x50, 0x76, 0xf2, 0xbd, 0xb8, 0xd2, 0x98, 0x3c,
  0x3c, 0xe5, 0x72, 0x3d, 0x30, 0xa2, 0x7a, 0xbd, 0x2c, 0x35, 0xab, 0x3d,
  0xb4, 0x67, 0x42, 0xbd, 0x50, 0x52, 0x2d, 0x3d, 0x24, 0xf2, 0xad, 0x3d,
  0x98, 0xed, 0x01, 0x3d, 0xf6, 0x81, 0xfa, 0x3d, 0xf0, 0xbb, 0x4e, 0x3d,
  0x40, 0xb7, 0xa6, 0x3d, 0x5e, 0xb0, 0xb7, 0x3d, 0x30, 0x14, 0x4b, 0x3d,
  0xae, 0x85, 0x4c, 0xbd, 0x54, 0xb3, 0xda, 0x3d, 0x3c, 0xfc, 0xaa, 0x3d,
  0x40, 0x45, 0x73, 0x3d, 0x00, 0x4a, 0x99, 0xbd, 0x4c, 0x59, 0xc1, 0xbc,
  0x2c, 0xdd, 0x8e, 0xbd, 0xe2, 0xed, 0xf2, 0x3d, 0xe0, 0x94, 0x03, 0xbe,
  0x78, 0xc0, 0xff, 0x3c, 0x80, 0xa3, 0xe7, 0x3a, 0xd0, 0x92, 0x98, 0xbb,
  0x00, 0xa6, 0xbe, 0xba, 0xd6, 0x5f, 0xb9, 0x3d, 0x7c, 0x58, 0xb2, 0xbc,
  0xd0, 0x8e, 0x52, 0x3c, 0xf8, 0x45, 0xd7, 0x3c, 0xe4, 0xba, 0x96, 0x3d,
  0x5c, 0x32, 0xa0, 0x3d, 0xb8, 0xf0, 0x93, 0xbd, 0xe8, 0x49, 0xce, 0x3c,
  0xc6, 0xb3, 0x8f, 0xbd, 0x40, 0x7f, 0xf5, 0xbd, 0xc0, 0x96, 0x74, 0xbc,
  0xf4, 0x4f, 0xf6, 0x3d, 0x78, 0x47, 0xf3, 0xbd, 0x04, 0x2d, 0x02, 0xbd,
  0xd0, 0x8b, 0xd6, 0x3c, 0x9c, 0x7b, 0x39, 0x3d, 0xa4, 0x32, 0x50, 0x3d,
  0xc0, 0xf1, 0x24, 0xbd, 0xce, 0xb1, 0xf1, 0xbd, 0xc2, 0x6e, 0xc1, 0x3d,
  0x94, 0x10, 0xc1, 0xbd, 0xdf, 0xe7, 0xe9, 0xbd, 0xa8, 0x15, 0xb2, 0x3c,
  0xf0, 0x5f, 0x24, 0x3c, 0x22, 0xc3, 0xa9, 0x3d, 0xf8, 0x60, 0xcb, 0x3d,
  0xb0, 0x76, 0xa1, 0xbc, 0xd4, 0x4a, 0x9b, 0xbd, 0x2c, 0x92, 0xcd, 0x3d,
  0x66, 0x43, 0x27, 0xbd, 0x3a, 0x3b, 0xb6, 0xbd, 0x40, 0x43, 0xc7, 0x3b,
  0xa2, 0xd0, 0xd4, 0xbd, 0x88, 0x00, 0x51, 0x3d, 0xa6, 0x12, 0xcc, 0x3d,
  0xda, 0xb2, 0xa2, 0x3d, 0xa4, 0x60, 0x2a, 0x3d, 0x62, 0x66, 0xe5, 0x3d,
  0xc0, 0x3d, 0x60, 0x3b, 0xe6, 0xc2, 0xfd, 0xbd, 0x18, 0x66, 0x65, 0xbd,
  0x80, 0x89, 0x28, 0xbb, 0x22, 0x32, 0x9c, 0xbd, 0x17, 0x4b, 0xc9, 0xbd,
  0xac, 0x57, 0x01, 0xbe, 0x8c, 0xc5, 0xb0, 0x3d, 0x48, 0xc5, 0xa9, 0x3d,
  0xda, 0x96, 0x83, 0x3d, 0x2c, 0xaa, 0xdf, 0x3d, 0x58, 0x78, 0xdf, 0xbc,
  0xac, 0x3d, 0xc2, 0xbc, 0x9a, 0x94, 0x6d, 0xbd, 0x0e, 0x5e, 0xd0, 0x3d,
  0x1e, 0x82, 0x68, 0xbd, 0x50, 0x7a, 0x0b, 0x3c, 0x34, 0x04, 0x52, 0xbd,
  0x50, 0x02, 0x32, 0xbc, 0x50, 0x26, 0xd5, 0x3c, 0xd7, 0xc9, 0x00, 0xbe,
  0xb8, 0xb8, 0xa7, 0x3d, 0x78, 0x1d, 0xbd, 0xbd, 0x80, 0xbb, 0x4b, 0xbd,
  0x10, 0x79, 0x21, 0xbc, 0x46, 0xfc, 0x38, 0xbd, 0xe0, 0xa6, 0xc3, 0x3d,
  0xae, 0x15, 0xd0, 0x3d, 0x7c, 0x8f, 0x68, 0x3d, 0xc8, 0x85, 0x0b, 0xbd,
  0x9a, 0x92, 0xe4, 0x3d, 0x24, 0x61, 0xb2, 0xbd, 0x5e, 0x23, 0xfd, 0x3d,
  0x90, 0x2e, 0x3b, 0xbd, 0xb0, 0x80, 0x8e, 0x3d, 0x80, 0x8e, 0x05, 0x3d,
  0x68, 0xd0, 0x38, 0xbd, 0x7c, 0xc8, 0x71, 0x3d, 0xf8, 0x98, 0x77, 0x3d,
  0x80, 0x02, 0xc6, 0xbd, 0x96, 0x60, 0xfe, 0x3d, 0xf4, 0x6c, 0x84, 0xbd,
  0xe8, 0xed, 0xed, 0xbc, 0x73, 0x4b, 0x88, 0xbd, 0xa0, 0x06, 0xcb, 0xbd,
  0xd8, 0x8a, 0x8c, 0x3d, 0xd0, 0xf3, 0x12, 0x3d, 0x04, 0xc9, 0x95, 0xbc,
  0x1e, 0x47, 0xe4, 0xbd, 0x21, 0xcf, 0xf0, 0xbd, 0x44, 0x8b, 0xdf, 0xbd,
  0x0a, 0x83, 0x44, 0xbd, 0x30, 0xf6, 0xee, 0x3d, 0x98, 0x94, 0xe8, 0x3c,
  0x8c, 0x16, 0x33, 0x3d, 0xf8, 0xfc, 0x6e, 0xbd, 0x74, 0x4a, 0xbe, 0xbd,
  0x20, 0x53, 0xee, 0x3b, 0x80, 0x41, 0x5d, 0x3c, 0x52, 0x44, 0x8a, 0x3d,
  0xe2, 0x57, 0x1b, 0xbd, 0x34, 0xd9, 0x37, 0xbd, 0x82, 0x0a, 0x00, 0xbe,
  0x9a, 0x01, 0x09, 0xbd, 0x0c, 0xd2, 0xa1, 0x3d, 0x3c, 0x38, 0x65, 0xbd,
  0xb0, 0xb8, 0x14, 0xbc, 0x68, 0x23, 0x53, 0xbd, 0x70, 0x14, 0xbc, 0xbb,
  0x80, 0xa3, 0xdd, 0xba, 0x63, 0xcf, 0xf4, 0xbd, 0x10, 0xc5, 0xe8, 0xbc,
  0xde, 0xce, 0xac, 0x3d, 0x2e, 0xc2, 0x8e, 0xbd, 0xa0, 0x25, 0xba, 0x3b,
  0x48, 0xd1, 0xd0, 0xbc, 0xe4, 0x98, 0x22, 0x3d, 0x2d, 0x07, 0x03, 0xbe,
  0x06, 0x74, 0xb9, 0x3d, 0x18, 0x03, 0x99, 0x3c, 0x02, 0x26, 0xac, 0x3d,
  0x7c, 0x13, 0x9d, 0xbd, 0x08, 0x13, 0x91, 0xbd, 0xb5, 0x79, 0xd0, 0xbd,
  0xac, 0x47, 0x75, 0xbd, 0x02, 0x86, 0xcd, 0x3d, 0x36, 0xcd, 0x80, 0x3d,
  0x50, 0x2a, 0x6d, 0x3d, 0x46, 0x6a, 0xac, 0xbd, 0xc0, 0x7f, 0x5b, 0xbb,
  0xb1, 0x7e, 0xe2, 0xbd, 0x20, 0xe2, 0xab, 0x3c, 0x14, 0x09, 0xd9, 0x3d,
  0xc0, 0x95, 0x7d, 0x3b, 0x36, 0xfd, 0xa8, 0xbd, 0xe8, 0x60, 0xae, 0x3c,
  0x28, 0x56, 0x42, 0xbc, 0x46, 0x49, 0xef, 0xbd, 0xf0, 0x1f, 0xf1, 0xbb,
  0x48, 0x77, 0x0a, 0x3d, 0x80, 0x85, 0x17, 0x3b, 0x90, 0xcb, 0x56, 0xbd,
  0x7b, 0xea, 0xd0, 0xbd, 0x80, 0xa1, 0x8a, 0x3c, 0x3a, 0xbb, 0xc6, 0xbd,
  0x6c, 0x22, 0x46, 0x3d, 0x0a, 0xf1, 0x0a, 0xbd, 0xe8, 0xda, 0x32, 0xbc,
  0xaa, 0xef, 0xdb, 0x3d, 0x78, 0x30, 0xac, 0xbd, 0xba, 0x9c, 0xe1, 0x3d,
  0xa2, 0xe0, 0xb3, 0xbd, 0x58, 0x5c, 0x41, 0x3d, 0xb4, 0x4b, 0xbd, 0xbd,
  0xcc, 0x07, 0x6e, 0xbd, 0x58, 0x6b, 0xbb, 0x3d, 0xec, 0x24, 0x80, 0x3d,
  0x10, 0x42, 0xe0, 0x3d, 0x96, 0xad, 0xb1, 0x3d, 0x32, 0x6c, 0xf8, 0x3d,
  0x2c, 0x05, 0x42, 0x3d, 0x58, 0x61, 0xc5, 0xbd, 0x17, 0x23, 0xe1, 0xbd,
  0x44, 0x88, 0x4e, 0x3d, 0x60, 0x6e, 0x8d, 0x3d, 0x04, 0x5a, 0x8a, 0xbc,
  0xc0, 0xee, 0xa4, 0x3c, 0xa0, 0xd5, 0x15, 0xbd, 0x90, 0x6d, 0x4b, 0x3d,
  0x7c, 0x4e, 0xf7, 0xbc, 0x06, 0x19, 0x98, 0xbd, 0x58, 0x61, 0xb8, 0xbd,
  0xf0, 0xe6, 0x73, 0x3d, 0x6a, 0xad, 0x94, 0xbd, 0xc0, 0x53, 0x39, 0x3c,
  0xcf, 0xec, 0x03, 0x3e, 0x40, 0x13, 0x6d, 0xbb, 0x60, 0x8f, 0x9c, 0x3c,
  0xbe, 0xb6, 0xe6, 0x3d, 0x00, 0xdf, 0xa4, 0xbb, 0xbc, 0x16, 0x50, 0x3d,
  0x80, 0x90, 0xa3, 0xba, 0x3c, 0x79, 0xef, 0x3d, 0xf4, 0x36, 0x68, 0xbd,
  0x28, 0xac, 0xa5, 0x3d, 0xa8, 0xb4, 0x72, 0x3d, 0x10, 0x50, 0x68, 0x3d,
  0xe7, 0x49, 0x02, 0x3e, 0xc6, 0x50, 0xaf, 0xbd, 0x46, 0xe7, 0xf6, 0x3d,
  0xe0, 0x63, 0xe6, 0xbd, 0x96, 0x88, 0x4e, 0xbd, 0xa2, 0xab, 0x2f, 0xbd,
  0xf0, 0xff, 0x55, 0x3d, 0x37, 0xd8, 0xf3, 0xbd, 0x40, 0x0b, 0x0e, 0xbb,
  0xae, 0x60, 0x64, 0xbd, 0x87, 0x81, 0x03, 0x3e, 0xff, 0xc4, 0xdc, 0xbd,
  0xa0, 0xc8, 0x11, 0x3d, 0xfc, 0xe2, 0xa2, 0xbd, 0xda, 0xdc, 0x0f, 0xbd,
  0x85, 0xe3, 0xe5, 0xbd, 0x72, 0x02, 0xd9, 0x3d, 0xde, 0xa2, 0x50, 0xbd,
  0xac, 0x17, 0xca, 0x3d, 0x28, 0x75, 0x07, 0xbc, 0x8a, 0x4b, 0x45, 0xbd,
  0xa8, 0xbf, 0x65, 0x3d, 0xd8, 0x4b, 0x99, 0x3c, 0x42, 0xa9, 0xec, 0xbd,
  0x90, 0xa3, 0xc9, 0xbd, 0x18, 0x4a, 0x75, 0x3d, 0x88, 0x1b, 0x9b, 0xbd,
  0x06, 0xd2, 0x0f, 0xbd, 0x1a, 0xf6, 0xb7, 0x3d, 0x50, 0xe9, 0x76, 0x3c,
  0xa4, 0xd2, 0xa2, 0xbc, 0x18, 0x9d, 0xff, 0x3c, 0x04, 0x34, 0xef, 0x3d,
  0xa8, 0x2d, 0x9e, 0xbd, 0x6d, 0xaa, 0x02, 0xbe, 0xb2, 0x01, 0x43, 0xbd,
  0x4d, 0x92, 0x00, 0xbe, 0x6e, 0x4c, 0x6b, 0xbd, 0xde, 0xb6, 0xb9, 0x3d,
  0x00, 0xbd, 0xf1, 0x3d, 0xd0, 0x64, 0x6f, 0x3d, 0xb4, 0xce, 0xb4, 0x3d,
  0x14, 0x67, 0x96, 0x3d, 0x14, 0x6c, 0xc2, 0xbc, 0x9c, 0xe2, 0xca, 0x3d,
  0x98, 0x75, 0x44, 0x3d, 0x78, 0x0e, 0x90, 0x3d, 0xf8, 0xbb, 0xa6, 0x3d,
  0x88, 0x3b, 0xd5, 0x3c, 0xb6, 0xee, 0xf3, 0x3d, 0x5b, 0xd8, 0x03, 0x3e,
  0x74, 0xcb, 0x8d, 0x3d, 0x9c, 0xbf, 0x24, 0x3d, 0x07, 0xcf, 0x94, 0xbd,
  0xd6, 0x70, 0x0c, 0xbd, 0x10, 0x6b, 0x64, 0x3d, 0xa0, 0xbf, 0x8c, 0xbd,
  0xa2, 0x99, 0x8f, 0xbd, 0x78, 0xda, 0x9f, 0x3c, 0x42, 0x7d, 0x41, 0xbd,
  0x78, 0x31, 0xcc, 0x3c, 0x79, 0xd7, 0x80, 0xbd, 0x64, 0x36, 0xc2, 0xbd,
  0x54, 0x65, 0x13, 0xbd, 0x74, 0x66, 0x9f, 0xbd, 0xee, 0xc6, 0xb7, 0x3d,
  0xf0, 0x2e, 0xda, 0x3d, 0x86, 0x37, 0x2b, 0xbd, 0xdc, 0x19, 0xee, 0x3d,
  0x9b, 0xdd, 0x02, 0x3e, 0xbc, 0x2b, 0xef, 0xbd, 0x16, 0x2e, 0xee, 0x3d,
  0x4e, 0x54, 0x8a, 0xbd, 0xe0, 0x73, 0x79, 0x3d, 0xce, 0xeb, 0xa7, 0xbd,
  0xc4, 0x5f, 0x61, 0xbd, 0x80, 0x95, 0x4f, 0x3b, 0xe2, 0xfd, 0x37, 0xbd,
  0xb3, 0x99, 0x97, 0xbd, 0x4c, 0x54, 0x8d, 0x3d, 0x86, 0x95, 0xc4, 0x3d,
  0xdc, 0x4f, 0x2c, 0xbd, 0x50, 0x49, 0x89, 0x3d, 0xda, 0xf8, 0xd3, 0x3d,
  0xac, 0x3c, 0xeb, 0x3d, 0x62, 0x00, 0x25, 0xbd, 0x94, 0x66, 0x5e, 0x3d,
  0x3a, 0x35, 0xdb, 0x3d, 0x4c, 0xf4, 0xc4, 0xbc, 0x2c, 0x20, 0xea, 0xbc,
  0x7b, 0x67, 0xb7, 0xbd, 0xd8, 0x13, 0x8d, 0x3d, 0x28, 0x22, 0xbb, 0xbc,
  0xb4, 0x97, 0x3e, 0x3d, 0xd6, 0x84, 0x02, 0xbe, 0x90, 0x2d, 0x78, 0xbc,
  0x5c, 0xa3, 0xf8, 0xbd, 0xdf, 0x70, 0xd3, 0xbd, 0xb0, 0x46, 0x10, 0x3d,
  0xb4, 0xfd, 0x43, 0xbd, 0xec, 0x65, 0xc9, 0x3d, 0xc0, 0x43, 0xf8, 0xbb,
  0x26, 0x11, 0x99, 0x3d, 0x82, 0x97, 0xee, 0x3d, 0x62, 0x91, 0xbc, 0xbd,
  0x80, 0xc8, 0x6d, 0x3d, 0x60, 0xc6, 0x6f, 0x3d, 0x96, 0x1c, 0xac, 0x3d,
  0x14, 0x51, 0x5d, 0x3d, 0x50, 0xc3, 0x0b, 0xbd, 0x86, 0x59, 0x85, 0xbd,
  0x7c, 0x0f, 0x84, 0xbd, 0x2e, 0x58, 0xd3, 0x3d, 0x40, 0x93, 0xce, 0x3c,
  0xec, 0x23, 0x00, 0xbd, 0x88, 0xc3, 0x9a, 0x3c, 0x5a, 0x40, 0xf9, 0xbd,
  0xd6, 0x97, 0x88, 0xbd, 0x3c, 0x54, 0xed, 0xbc, 0xf2, 0xb3, 0x91, 0xbd,
  0xec, 0x38, 0xcb, 0x3d, 0x78, 0x5d, 0xf8, 0xbd, 0x82, 0xdd, 0xff, 0x3d,
  0xe4, 0xef, 0x05, 0xbd, 0x24, 0xe8, 0x08, 0x3d, 0x40, 0x3e, 0xed, 0x3c,
  0xa8, 0x2a, 0x60, 0xbc, 0x0e, 0x7e, 0xe4, 0x3d, 0x40, 0x24, 0x16, 0x3c,
  0x6d, 0xdd, 0xfd, 0xbd, 0xac, 0xf5, 0x20, 0x3d, 0xa0, 0x12, 0xe7, 0x3b,
  0x30, 0x8f, 0x1b, 0xbd, 0x62, 0x43, 0xb8, 0x3d, 0x88, 0xae, 0x8e, 0xbd,
  0x44, 0x3d, 0x4e, 0x3d, 0xc4, 0x14, 0x87, 0xbd, 0xe6, 0x61, 0x80, 0xbd,
  0x84, 0xea, 0xe1, 0xbc, 0xe4, 0xfa, 0x83, 0x3d, 0x10, 0x78, 0x4f, 0xbd,
  0xb6, 0x0d, 0x00, 0xbd, 0xd6, 0xcd, 0xc1, 0x3d, 0xb4, 0xfa, 0x5d, 0x3d,
  0xb8, 0xdb, 0xf9, 0xbd, 0xfa, 0x05, 0x8c, 0x3d, 0x2d, 0x47, 0x01, 0x3e,
  0xfc, 0x05, 0x8e, 0x3d, 0xf6, 0x0b, 0xc3, 0x3d, 0x62, 0x66, 0xc7, 0x3d,
  0x4a, 0x9b, 0xbf, 0xbd, 0xd8, 0x36, 0x54, 0x3d, 0x6a, 0x3c, 0xb1, 0x3d,
  0xd4, 0x12, 0xb2, 0x3d, 0xc0, 0xd9, 0xf9, 0xbd, 0xa0, 0x59, 0x0f, 0x3c,
  0x7a, 0x8b, 0xbe, 0xbd, 0x56, 0x6b, 0xb8, 0x3d, 0x0c, 0xf3, 0xd7, 0xbd,
  0x94, 0x59, 0xc0, 0x3d, 0x36, 0xe6, 0x93, 0xbd, 0x4d, 0xd3, 0xfc, 0xbd,
  0x86, 0x25, 0xd0, 0xbd, 0x48, 0x9b, 0x78, 0xbc, 0xad, 0x25, 0xe7, 0xbd,
  0x7c, 0x39, 0x21, 0x3d, 0x49, 0x11, 0xd1, 0xbd, 0x82, 0x58, 0xa1, 0x3d,
  0xf5, 0x98, 0xf6, 0xbd, 0xc5, 0xae, 0xcf, 0xbd, 0x32, 0xc5, 0xbc, 0x3d,
  0x54, 0x81, 0x9e, 0x3d, 0x10, 0x85, 0x9c, 0x3c, 0x24, 0xda, 0x27, 0xbd,
  0x70, 0x76, 0x5c, 0xbd, 0x7b, 0x57, 0xc0, 0xbd, 0xac, 0x01, 0xc9, 0xbd,
  0xf8, 0x05, 0xa3, 0xbd, 0x24, 0xf7, 0x94, 0xbd, 0x38, 0x22, 0xb0, 0x3d,
  0xf8, 0xb8, 0xc3, 0x3d, 0x14, 0x51, 0xb9, 0xbc, 0x0f, 0xbe, 0x94, 0xbd,
  0x90, 0x5f, 0xb5, 0xbd, 0x03, 0x89, 0x03, 0x3e, 0x08, 0x12, 0xa0, 0x3d,
  0x7c, 0x41, 0x09, 0x3d, 0x56, 0xbf, 0xf8, 0x3d, 0x6c, 0x49, 0x0b, 0x3d,
  0xd0, 0x14, 0xc0, 0x3d, 0xc8, 0x50, 0x2d, 0xbc, 0x88, 0x70, 0x9d, 0x3d,
  0x40, 0x56, 0xa1, 0x3c, 0x00, 0x74, 0x87, 0x3c, 0xc2, 0x21, 0x94, 0xbd,
  0xec, 0xf1, 0x79, 0x3d, 0x76, 0xf6, 0xd5, 0x3d, 0xac, 0x9b, 0xd8, 0xbc,
  0x78, 0x27, 0x2b, 0x3d, 0xb2, 0x9a, 0x5c, 0xbd, 0x28, 0x93, 0x9b, 0xbd,
  0xb8, 0x17, 0x9c, 0x3d, 0x16, 0xbe, 0xb4, 0x3d, 0xd0, 0x18, 0x13, 0x3d,
  0x80, 0xf9, 0xa8, 0xba, 0x60, 0x20, 0xbd, 0x3d, 0x68, 0xdd, 0x10, 0xbc,
  0x22, 0xa4, 0x99, 0x3d, 0x94, 0xff, 0x8f, 0xbd, 0xc0, 0x98, 0x89, 0xbc,
  0x80, 0xd4, 0x73, 0x3d, 0x8c, 0x5d, 0x84, 0x3d, 0xbc, 0xf6, 0x00, 0x3d,
  0x3e, 0x8c, 0x8b, 0xbd, 0x86, 0x83, 0x5d, 0xbd, 0xe6, 0x1c, 0x03, 0xbe,
  0x6c, 0xbc, 0xb2, 0x3d, 0xe6, 0xb8, 0xe1, 0xbd, 0x70, 0x20, 0x63, 0x3d,
  0x4c, 0xe1, 0x4a, 0x3d, 0x70, 0xfb, 0x1f, 0xbd, 0xec, 0x31, 0x03, 0xbd,
  0x00, 0x54, 0x28, 0x3d, 0x5a, 0x01, 0xbe, 0x3d, 0x4c, 0x78, 0x59, 0x3d,
  0x66, 0x7b, 0x97, 0x3d, 0x1c, 0xf9, 0x16, 0xbd, 0x98, 0x5b, 0xb6, 0x3c,
  0x00, 0xac, 0x97, 0x39, 0x87, 0xa1, 0xdc, 0xbd, 0xdf, 0x47, 0x94, 0xbd,
  0x97, 0xa6, 0x86, 0xbd, 0x46, 0x76, 0xc3, 0xbd, 0x3a, 0xbe, 0x78, 0xbd,
  0x34, 0x58, 0xfe, 0xbc, 0x74, 0xa7, 0x52, 0xbd, 0xf8, 0x96, 0x2d, 0x3d,
  0xb0, 0x49, 0xd5, 0xbb, 0xa8, 0x10, 0xe5, 0xbd, 0xc0, 0x2e, 0x3c, 0xbc,
  0x14, 0x1c, 0xc4, 0xbd, 0x28, 0x8b, 0x8b, 0x3c, 0xe0, 0x41, 0x99, 0x3b,
  0x5e, 0x03, 0x94, 0xbd, 0x9e, 0x11, 0x32, 0xbd, 0x46, 0xde, 0x52, 0xbd,
  0x3c, 0x3c, 0xce, 0x3d, 0x38, 0x89, 0xc2, 0xbd, 0x32, 0x91, 0xb6, 0xbd,
  0x54, 0x6d, 0x16, 0xbd, 0x46, 0x0f, 0x6f, 0xbd, 0x6a, 0xa7, 0xa8, 0x3d,
  0x60, 0x20, 0xac, 0x3c, 0xca, 0xd1, 0xbe, 0xbd, 0x00, 0x35, 0xa0, 0xbd,
  0x4c, 0x2b, 0xc1, 0x3d, 0x46, 0xcd, 0xca, 0xbd, 0x84, 0xc9, 0x19, 0x3d,
  0x5f, 0x34, 0xf7, 0xbd, 0x98, 0x01, 0xac, 0x3d, 0x2a, 0x4b, 0x01, 0xbe,
  0xd6, 0x4b, 0xba, 0xbd, 0xe8, 0xe2, 0xad, 0xbc, 0x10, 0x6a, 0xc4, 0xbb,
  0x88, 0xf8, 0x81, 0xbd, 0xa4, 0x4b, 0x4f, 0x3d, 0x7e, 0xa4, 0xf9, 0x3d,
  0xe0, 0x66, 0xc1, 0xbb, 0x29, 0x52, 0xb7, 0xbd, 0x56, 0x73, 0x8d, 0xbd,
  0x8a, 0xb4, 0xc3, 0x3d, 0x70, 0xcf, 0x04, 0x3c, 0x60, 0x62, 0xcc, 0xbd,
  0x80, 0x67, 0xb4, 0x3a, 0xa0, 0xbf, 0xd4, 0x3c, 0x60, 0xe1, 0xf5, 0xbd,
  0x82, 0x97, 0xac, 0xbd, 0x25, 0x0e, 0x03, 0xbe, 0x90, 0x78, 0x2b, 0xbd,
  0x50, 0xf9, 0x6b, 0xbd, 0x68, 0x7b, 0x15, 0x3d, 0xf6, 0x9c, 0xd7, 0x3d,
  0xe4, 0xd9, 0xa1, 0x3d, 0x9e, 0x98, 0xf2, 0x3d, 0x96, 0x16, 0xe6, 0x3d,
  0xd4, 0x3d, 0x52, 0x3d, 0x46, 0xaf, 0xf0, 0x3d, 0xde, 0xa4, 0xaf, 0x3d,
  0x17, 0x05, 0xf7, 0xbd, 0xbc, 0x19, 0xf7, 0xbd, 0xac, 0xe7, 0x2d, 0x3d,
  0xa8, 0xd4, 0xa1, 0x3d, 0xe2, 0x5a, 0x94, 0x3d, 0xbc, 0xe6, 0x87, 0x3d,
  0x7e, 0x9b, 0xa8, 0x3d, 0xc4, 0x5b, 0xa7, 0xbc, 0x32, 0xe3, 0x2e, 0xbd,
  0x60, 0x48, 0xb1, 0xbb, 0xda, 0x1c, 0xf1, 0x3d, 0x8a, 0xef, 0xc4, 0x3d,
  0x80, 0x47, 0xcf, 0xba, 0x4f, 0xb8, 0x03, 0x3e, 0x5c, 0x1a, 0x35, 0xbd,
  0x98, 0x2c, 0x90, 0x3c, 0xe1, 0x13, 0xdd, 0xbd, 0x0c, 0xff, 0x51, 0x3d,
  0x30, 0xa6, 0x96, 0x3d, 0xd0, 0x34, 0x87, 0xbb, 0x50, 0x08, 0x2d, 0xbd,
  0x4a, 0xd2, 0xdf, 0x3d, 0x38, 0x28, 0x93, 0x3d, 0x02, 0x16, 0x83, 0x3d,
  0xb3, 0xde, 0xe0, 0xbd, 0x9e, 0x65, 0xd5, 0x3d, 0xc5, 0x88, 0xdf, 0xbd,
  0x7a, 0x04, 0xff, 0xbd, 0xe2, 0x9b, 0xe8, 0xbd, 0xa6, 0xbf, 0xa7, 0x3d,
  0x9a, 0xea, 0xdb, 0xbd, 0x48, 0x8c, 0xcf, 0x3c, 0x6c, 0xbc, 0xfd, 0xbd,
  0xac, 0x0f, 0xc0, 0xbd, 0x3e, 0xa2, 0x9f, 0x3d, 0x40, 0x6c, 0xde, 0x3c,
  0xd4, 0xd7, 0x9c, 0xbd, 0x18, 0x38, 0xcc, 0x3c, 0x1c, 0xc2, 0x4c, 0x3d,
  0xf0, 0xd0, 0xa6, 0x3d, 0xa0, 0x0f, 0x8f, 0x3c, 0x30, 0xa1, 0x89, 0xbd,
  0xc8, 0x09, 0xf8, 0xbd, 0xb8, 0x62, 0x23, 0x3d, 0xf0, 0x3c, 0x19, 0x3c,
  0x6b, 0xa5, 0xda, 0xbd, 0x80, 0xbf, 0x5b, 0x3d, 0x08, 0x4e, 0x30, 0xbc,
  0x30, 0x52, 0x98, 0x3c, 0x18, 0x0f, 0xc3, 0x3c, 0x06, 0x7d, 0xbe, 0x3d,
  0x06, 0x97, 0xfd, 0x3d, 0x80, 0x16, 0x9a, 0xbd, 0xfc, 0xb7, 0xbd, 0xbd,
  0x78, 0x1e, 0xd2, 0x3d, 0x27, 0x7c, 0xfc, 0xbd, 0x58, 0xf5, 0x78, 0x3d,
  0x3e, 0xa7, 0xb2, 0x3d, 0x88, 0x09, 0xc4, 0xbd, 0x28, 0x2f, 0xd2, 0x3c,
  0x68, 0x42, 0xe3, 0x3c, 0x9a, 0xd8, 0xa9, 0x3d, 0xbc, 0x35, 0xf5, 0xbd,
  0x2c, 0x5c, 0xee, 0xbd, 0x78, 0x6a, 0x24, 0xbc, 0x8e, 0x27, 0x51, 0xbd,
  0xa0, 0xae, 0xa7, 0x3b, 0x58, 0x02, 0x3a, 0xbc, 0x68, 0x13, 0x3f, 0xbc,
  0x87, 0xc2, 0xcb, 0xbd, 0x00, 0x47, 0xd1, 0xba, 0xf0, 0xfb, 0x3c, 0xbd,
  0x9e, 0x2c, 0xa3, 0xbd, 0x00, 0xbb, 0xdd, 0x3c, 0x70, 0x25, 0x3b, 0xbc,
  0x31, 0xc7, 0xfa, 0xbd, 0xb4, 0xaa, 0xef, 0x3d, 0x10, 0x90, 0xc6, 0x3c,
  0x70, 0xb1, 0x1b, 0xbc, 0x72, 0x20, 0xc0, 0xbd, 0xbe, 0x2f, 0x71, 0xbd,
  0x80, 0x86, 0xd7, 0xbc, 0x26, 0xff, 0xff, 0xff, 0x04, 0x00, 0x00, 0x00,
  0x08, 0x00, 0x00, 0x00, 0x8d, 0x96, 0xfd, 0x3b, 0x8b, 0x96, 0xfd, 0xbb,
  0x3a, 0xff, 0xff, 0xff, 0x04, 0x00, 0x00, 0x00, 0x10, 0x00, 0x00, 0x00,
  0x10, 0x36, 0x6b, 0x3f, 0xe2, 0xe6, 0xc7, 0xbe, 0x68, 0x76, 0x83, 0xbe,
  0xb8, 0x59, 0x65, 0x3f, 0x56, 0xff, 0xff, 0xff, 0x04, 0x00, 0x00, 0x00,
  0x08, 0x00, 0x00, 0x00, 0x48, 0xd0, 0x7b, 0xbe, 0x28, 0x0f, 0x00, 0xbe,
  0xbc, 0xfb, 0xff, 0xff, 0xc0, 0xfb, 0xff, 0xff, 0x0f, 0x00, 0x00, 0x00,
  0x4d, 0x4c, 0x49, 0x52, 0x20, 0x43, 0x6f, 0x6e, 0x76, 0x65, 0x72, 0x74,
  0x65, 0x64, 0x2e, 0x00, 0x01, 0x00, 0x00, 0x00, 0x14, 0x00, 0x00, 0x00,
  0x00, 0x00, 0x0e, 0x00, 0x18, 0x00, 0x14, 0x00, 0x10, 0x00, 0x0c, 0x00,
  0x08, 0x00, 0x04, 0x00, 0x0e, 0x00, 0x00, 0x00, 0x14, 0x00, 0x00, 0x00,
  0x1c, 0x00, 0x00, 0x00, 0x24, 0x01, 0x00, 0x00, 0x28, 0x01, 0x00, 0x00,
  0x2c, 0x01, 0x00, 0x00, 0x04, 0x00, 0x00, 0x00, 0x6d, 0x61, 0x69, 0x6e,
  0x00, 0x00, 0x00, 0x00, 0x04, 0x00, 0x00, 0x00, 0xcc, 0x00, 0x00, 0x00,
  0x84, 0x00, 0x00, 0x00, 0x50, 0x00, 0x00, 0x00, 0x14, 0x00, 0x00, 0x00,
  0x00, 0x00, 0x0e, 0x00, 0x1a, 0x00, 0x14, 0x00, 0x10, 0x00, 0x0c, 0x00,
  0x0b, 0x00, 0x04, 0x00, 0x0e, 0x00, 0x00, 0x00, 0x1c, 0x00, 0x00, 0x00,
  0x00, 0x00, 0x00, 0x09, 0x1c, 0x00, 0x00, 0x00, 0x20, 0x00, 0x00, 0x00,
  0x01, 0x00, 0x00, 0x00, 0x00, 0x00, 0x06, 0x00, 0x08, 0x00, 0x04, 0x00,
  0x06, 0x00, 0x00, 0x00, 0x00, 0x00, 0x80, 0x3f, 0x01, 0x00, 0x00, 0x00,
  0x08, 0x00, 0x00, 0x00, 0x01, 0x00, 0x00, 0x00, 0x07, 0x00, 0x00, 0x00,
  0x9a, 0xff, 0xff, 0xff, 0x10, 0x00, 0x00, 0x00, 0x00, 0x00, 0x00, 0x08,
  0x0c, 0x00, 0x00, 0x00, 0x10, 0x00, 0x00, 0x00, 0x84, 0xfc, 0xff, 0xff,
  0x01, 0x00, 0x00, 0x00, 0x07, 0x00, 0x00, 0x00, 0x03, 0x00, 0x00, 0x00,
  0x06, 0x00, 0x00, 0x00, 0x01, 0x00, 0x00, 0x00, 0x03, 0x00, 0x00, 0x00,
  0xca, 0xff, 0xff, 0xff, 0x10, 0x00, 0x00, 0x00, 0x00, 0x00, 0x00, 0x08,
  0x10, 0x00, 0x00, 0x00, 0x14, 0x00, 0x00, 0x00, 0xba, 0xff, 0xff, 0xff,
  0x00, 0x00, 0x00, 0x01, 0x01, 0x00, 0x00, 0x00, 0x06, 0x00, 0x00, 0x00,
  0x03, 0x00, 0x00, 0x00, 0x05, 0x00, 0x00, 0x00, 0x02, 0x00, 0x00, 0x00,
  0xff, 0xff, 0xff, 0xff, 0x00, 0x00, 0x0e, 0x00, 0x16, 0x00, 0x00, 0x00,
  0x10, 0x00, 0x0c, 0x00, 0x0b, 0x00, 0x04, 0x00, 0x0e, 0x00, 0x00, 0x00,
  0x18, 0x00, 0x00, 0x00, 0x00, 0x00, 0x00, 0x08, 0x18, 0x00, 0x00, 0x00,
  0x1c, 0x00, 0x00, 0x00, 0x00, 0x00, 0x06, 0x00, 0x08, 0x00, 0x07, 0x00,
  0x06, 0x00, 0x00, 0x00, 0x00, 0x00, 0x00, 0x01, 0x01, 0x00, 0x00, 0x00,
  0x05, 0x00, 0x00, 0x00, 0x03, 0x00, 0x00, 0x00, 0x00, 0x00, 0x00, 0x00,
  0x04, 0x00, 0x00, 0x00, 0xff, 0xff, 0xff, 0xff, 0x01, 0x00, 0x00, 0x00,
  0x08, 0x00, 0x00, 0x00, 0x01, 0x00, 0x00, 0x00, 0x00, 0x00, 0x00, 0x00,
  0x09, 0x00, 0x00, 0x00, 0xb4, 0x02, 0x00, 0x00, 0x5c, 0x02, 0x00, 0x00,
  0x1c, 0x02, 0x00, 0x00, 0xe0, 0x01, 0x00, 0x00, 0x94, 0x01, 0x00, 0x00,
  0x2c, 0x01, 0x00, 0x00, 0xc0, 0x00, 0x00, 0x00, 0x50, 0x00, 0x00, 0x00,
  0x04, 0x00, 0x00, 0x00, 0x86, 0xfd, 0xff, 0xff, 0x00, 0x00, 0x00, 0x01,
  0x10, 0x00, 0x00, 0x00, 0x10, 0x00, 0x00, 0x00, 0x09, 0x00, 0x00, 0x00,
  0x28, 0x00, 0x00, 0x00, 0x70, 0xfd, 0xff, 0xff, 0x1b, 0x00, 0x00, 0x00,
  0x53, 0x74, 0x61, 0x74, 0x65, 0x66, 0x75, 0x6c, 0x50, 0x61, 0x72, 0x74,
  0x69, 0x74, 0x69, 0x6f, 0x6e, 0x65, 0x64, 0x43, 0x61, 0x6c, 0x6c, 0x5f,
  0x31, 0x3a, 0x30, 0x00, 0x02, 0x00, 0x00, 0x00, 0x01, 0x00, 0x00, 0x00,
  0x02, 0x00, 0x00, 0x00, 0xce, 0xfd, 0xff, 0xff, 0x00, 0x00, 0x00, 0x01,
  0x10, 0x00, 0x00, 0x00, 0x10, 0x00, 0x00, 0x00, 0x08, 0x00, 0x00, 0x00,
  0x4c, 0x00, 0x00, 0x00, 0xb8, 0xfd, 0xff, 0xff, 0x3c, 0x00, 0x00, 0x00,
  0x73, 0x65, 0x71, 0x75, 0x65, 0x6e, 0x74, 0x69, 0x61, 0x6c, 0x5f, 0x31,
  0x2f, 0x64, 0x65, 0x6e, 0x73, 0x65, 0x5f, 0x32, 0x5f, 0x31, 0x2f, 0x4d,
  0x61, 0x74, 0x4d, 0x75, 0x6c, 0x3b, 0x73, 0x65, 0x71, 0x75, 0x65, 0x6e,
  0x74, 0x69, 0x61, 0x6c, 0x5f, 0x31, 0x2f, 0x64, 0x65, 0x6e, 0x73, 0x65,
  0x5f, 0x32, 0x5f, 0x31, 0x2f, 0x42, 0x69, 0x61, 0x73, 0x41, 0x64, 0x64,
  0x00, 0x00, 0x00, 0x00, 0x02, 0x00, 0x00, 0x00, 0x01, 0x00, 0x00, 0x00,
  0x02, 0x00, 0x00, 0x00, 0x3a, 0xfe, 0xff, 0xff, 0x00, 0x00, 0x00, 0x01,
  0x10, 0x00, 0x00, 0x00, 0x10, 0x00, 0x00, 0x00, 0x07, 0x00, 0x00, 0x00,
  0x48, 0x00, 0x00, 0x00, 0x24, 0xfe, 0xff, 0xff, 0x39, 0x00, 0x00, 0x00,
  0x73, 0x65, 0x71, 0x75, 0x65, 0x6e, 0x74, 0x69, 0x61, 0x6c, 0x5f, 0x31,
  0x2f, 0x64, 0x65, 0x6e, 0x73, 0x65, 0x5f, 0x31, 0x5f, 0x32, 0x2f, 0x4d,
  0x61, 0x74, 0x4d, 0x75, 0x6c, 0x3b, 0x73, 0x65, 0x71, 0x75, 0x65, 0x6e,
  0x74, 0x69, 0x61, 0x6c, 0x5f, 0x31, 0x2f, 0x64, 0x65, 0x6e, 0x73, 0x65,
  0x5f, 0x31, 0x5f, 0x32, 0x2f, 0x52, 0x65, 0x6c, 0x75, 0x00, 0x00, 0x00,
  0x02, 0x00, 0x00, 0x00, 0x01, 0x00, 0x00, 0x00, 0x01, 0x00, 0x00, 0x00,
  0xa2, 0xfe, 0xff, 0xff, 0x00, 0x00, 0x00, 0x01, 0x10, 0x00, 0x00, 0x00,
  0x10, 0x00, 0x00, 0x00, 0x06, 0x00, 0x00, 0x00, 0x44, 0x00, 0x00, 0x00,
  0x8c, 0xfe, 0xff, 0xff, 0x35, 0x00, 0x00, 0x00, 0x73, 0x65, 0x71, 0x75,
  0x65, 0x6e, 0x74, 0x69, 0x61, 0x6c, 0x5f, 0x31, 0x2f, 0x64, 0x65, 0x6e,
  0x73, 0x65, 0x5f, 0x31, 0x2f, 0x4d, 0x61, 0x74, 0x4d, 0x75, 0x6c, 0x3b,
  0x73, 0x65, 0x71, 0x75, 0x65, 0x6e, 0x74, 0x69, 0x61, 0x6c, 0x5f, 0x31,
  0x2f, 0x64, 0x65, 0x6e, 0x73, 0x65, 0x5f, 0x31, 0x2f, 0x52, 0x65, 0x6c,
  0x75, 0x00, 0x00, 0x00, 0x02, 0x00, 0x00, 0x00, 0x01, 0x00, 0x00, 0x00,
  0x04, 0x00, 0x00, 0x00, 0x06, 0xff, 0xff, 0xff, 0x00, 0x00, 0x00, 0x01,
  0x10, 0x00, 0x00, 0x00, 0x10, 0x00, 0x00, 0x00, 0x05, 0x00, 0x00, 0x00,
  0x28, 0x00, 0x00, 0x00, 0xf0, 0xfe, 0xff, 0xff, 0x1b, 0x00, 0x00, 0x00,
  0x73, 0x65, 0x71, 0x75, 0x65, 0x6e, 0x74, 0x69, 0x61, 0x6c, 0x5f, 0x31,
  0x2f, 0x64, 0x65, 0x6e, 0x73, 0x65, 0x5f, 0x31, 0x2f, 0x4d, 0x61, 0x74,
  0x4d, 0x75, 0x6c, 0x00, 0x02, 0x00, 0x00, 0x00, 0x04, 0x00, 0x00, 0x00,
  0x65, 0x01, 0x00, 0x00, 0x4e, 0xff, 0xff, 0xff, 0x00, 0x00, 0x00, 0x01,
  0x10, 0x00, 0x00, 0x00, 0x10, 0x00, 0x00, 0x00, 0x04, 0x00, 0x00, 0x00,
  0x1c, 0x00, 0x00, 0x00, 0x38, 0xff, 0xff, 0xff, 0x0f, 0x00, 0x00, 0x00,
  0x61, 0x72, 0x69, 0x74, 0x68, 0x2e, 0x63, 0x6f, 0x6e, 0x73, 0x74, 0x61,
  0x6e, 0x74, 0x32, 0x00, 0x01, 0x00, 0x00, 0x00, 0x02, 0x00, 0x00, 0x00,
  0x86, 0xff, 0xff, 0xff, 0x00, 0x00, 0x00, 0x01, 0x10, 0x00, 0x00, 0x00,
  0x10, 0x00, 0x00, 0x00, 0x03, 0x00, 0x00, 0x00, 0x1c, 0x00, 0x00, 0x00,
  0x70, 0xff, 0xff, 0xff, 0x0f, 0x00, 0x00, 0x00, 0x61, 0x72, 0x69, 0x74,
  0x68, 0x2e, 0x63, 0x6f, 0x6e, 0x73, 0x74, 0x61, 0x6e, 0x74, 0x31, 0x00,
  0x02, 0x00, 0x00, 0x00, 0x01, 0x00, 0x00, 0x00, 0x04, 0x00, 0x00, 0x00,
  0xc2, 0xff, 0xff, 0xff, 0x00, 0x00, 0x00, 0x01, 0x10, 0x00, 0x00, 0x00,
  0x10, 0x00, 0x00, 0x00, 0x02, 0x00, 0x00, 0x00, 0x1c, 0x00, 0x00, 0x00,
  0xac, 0xff, 0xff, 0xff, 0x0e, 0x00, 0x00, 0x00, 0x61, 0x72, 0x69, 0x74,
  0x68, 0x2e, 0x63, 0x6f, 0x6e, 0x73, 0x74, 0x61, 0x6e, 0x74, 0x00, 0x00,
  0x02, 0x00, 0x00, 0x00, 0x02, 0x00, 0x00, 0x00, 0x01, 0x00, 0x00, 0x00,
  0x00, 0x00, 0x16, 0x00, 0x18, 0x00, 0x14, 0x00, 0x00, 0x00, 0x10, 0x00,
  0x0c, 0x00, 0x08, 0x00, 0x00, 0x00, 0x00, 0x00, 0x00, 0x00, 0x07, 0x00,
  0x16, 0x00, 0x00, 0x00, 0x00, 0x00, 0x00, 0x01, 0x14, 0x00, 0x00, 0x00,
  0x14, 0x00, 0x00, 0x00, 0x01, 0x00, 0x00, 0x00, 0x30, 0x00, 0x00, 0x00,
  0x04, 0x00, 0x04, 0x00, 0x04, 0x00, 0x00, 0x00, 0x1e, 0x00, 0x00, 0x00,
  0x73, 0x65, 0x72, 0x76, 0x69, 0x6e, 0x67, 0x5f, 0x64, 0x65, 0x66, 0x61,
  0x75, 0x6c, 0x74, 0x5f, 0x6b, 0x65, 0x72, 0x61, 0x73, 0x5f, 0x74, 0x65,
  0x6e, 0x73, 0x6f, 0x72, 0x3a, 0x30, 0x00, 0x00, 0x02, 0x00, 0x00, 0x00,
  0x01, 0x00, 0x00, 0x00, 0x65, 0x01, 0x00, 0x00, 0x02, 0x00, 0x00, 0x00,
  0x20, 0x00, 0x00, 0x00, 0x04, 0x00, 0x00, 0x00, 0xf4, 0xff, 0xff, 0xff,
  0x19, 0x00, 0x00, 0x00, 0x00, 0x00, 0x00, 0x19, 0x0c, 0x00, 0x0c, 0x00,
  0x0b, 0x00, 0x00, 0x00, 0x00, 0x00, 0x04, 0x00, 0x0c, 0x00, 0x00, 0x00,
  0x09, 0x00, 0x00, 0x00, 0x00, 0x00, 0x00, 0x09
};
